{
  "<blank>": 0,
  "<sos>": 1,
  "<eos>": 2,
  "<unk>": 3,
  "ʈ": 4,
  "ʎː": 5,
  "cː": 6,
  "œ̞": 7,
  "ʔʲ": 8,
  "o̤": 9,
  "ɠ": 10,
  "ø": 11,
  "kˀ": 12,
  "e̝": 13,
  "ʈ͡ʂ": 14,
  "ɡʰ": 15,
  "ɟ": 16,
  "z": 17,
  "ʃˠ": 18,
  "vˠ": 19,
  "ǃʰ": 20,
  "dʷ": 21,
  "ĩ": 22,
  "nˠ": 23,
  "ə": 24,
  "t͡ʃʰ": 25,
  "d̤": 26,
  "fʲ": 27,
  "xʷ": 28,
  "ɛ̃": 29,
  "ʃʰ": 30,
  "ʃ̩": 31,
  "ɤˀ": 32,
  "əː": 33,
  "ɛ̯": 34,
  "ɞ": 35,
  "yː": 36,
  "fʷ": 37,
  "ẽ": 38,
  "rˤ": 39,
  "ɒ": 40,
  "ɲː": 41,
  "j": 42,
  "f": 43,
  "ɲ̥": 44,
  "ʃː": 45,
  "l": 46,
  "ʒ̩": 47,
  "ɛ̝": 48,
  "ð̞": 49,
  "ʃʲ": 50,
  "ɛ": 51,
  "ɟː": 52,
  "ʌ": 53,
  "ʍ": 54,
  "kʰ": 55,
  "p͡f": 56,
  "ɜː": 57,
  "ɘ": 58,
  "bʷ": 59,
  "sː": 60,
  "ɡː": 61,
  "o̝": 62,
  "cʼ": 63,
  "tʰ": 64,
  "kʷ": 65,
  "ŋ̥": 66,
  "r̝": 67,
  "ɸː": 68,
  "u̝": 69,
  "ṳ": 70,
  "β̞": 71,
  "ɾː": 72,
  "ɔˤ": 73,
  "ʎ": 74,
  "ʊ̃": 75,
  "pˀ": 76,
  "m̩": 77,
  "ɕː": 78,
  "ɪ̯": 79,
  "ɖʰ": 80,
  "ɰ": 81,
  "t̠": 82,
  "t͡ʃʲ": 83,
  "ɡ̤": 84,
  "j̩": 85,
  "ɭ̩": 86,
  "ŋ̰": 87,
  "p": 88,
  "ɾ": 89,
  "sʲ": 90,
  "ɲ̤": 91,
  "cʰ": 92,
  "a̯": 93,
  "ɡʷ": 94,
  "t͡s": 95,
  "ɨ̯": 96,
  "n̩": 97,
  "ʌː": 98,
  "ɤ": 99,
  "l̩": 100,
  "l̴": 101,
  "pʲ": 102,
  "k": 103,
  "jː": 104,
  "ɛ̈": 105,
  "t͡ʃː": 106,
  "dˠ": 107,
  "ɱ̩": 108,
  "ɯː": 109,
  "kʼ": 110,
  "ɑ̯": 111,
  "zʷ": 112,
  "çː": 113,
  "ã": 114,
  "sˠ": 115,
  "s̻": 116,
  "ɐ": 117,
  "ɸʷ": 118,
  "ɔ̃": 119,
  "bˠ": 120,
  "ʈː": 121,
  "ʂ": 122,
  "ɑ": 123,
  "ë": 124,
  "ɸ": 125,
  "ɮʲ": 126,
  "nː": 127,
  "mʷ": 128,
  "ǁ": 129,
  "ʒ": 130,
  "jˠ": 131,
  "d": 132,
  "tː": 133,
  "ɤ̆": 134,
  "s̺": 135,
  "mː": 136,
  "ɻ": 137,
  "l̪": 138,
  "ɜ": 139,
  "ɓ": 140,
  "ü": 141,
  "lʲ": 142,
  "tˠ": 143,
  "ŋː": 144,
  "ŋʲ": 145,
  "h̩": 146,
  "qʷ": 147,
  "tʼ": 148,
  "ə̯": 149,
  "t͡sʲː": 150,
  "m̤": 151,
  "ɕʰ": 152,
  "nʲ": 153,
  "rˠ": 154,
  "ɖ̤": 155,
  "ø̈": 156,
  "ɯˀ": 157,
  "mʲ": 158,
  "n̥": 159,
  "mˤ": 160,
  "ʒʲ": 161,
  "æ": 162,
  "tʷ": 163,
  "d̪": 164,
  "ʔ": 165,
  "a̠": 166,
  "ɾˠ": 167,
  "ʉ": 168,
  "ɔ̯": 169,
  "zʲ": 170,
  "ɳː": 171,
  "t͡sː": 172,
  "æ̯": 173,
  "r̤": 174,
  "ɑː": 175,
  "ɘː": 176,
  "ə˞": 177,
  "zˤ": 178,
  "õ": 179,
  "əˀ": 180,
  "e": 181,
  "nˤ": 182,
  "u": 183,
  "ɑ̃": 184,
  "o": 185,
  "ħ": 186,
  "ŋ": 187,
  "mˠ": 188,
  "i": 189,
  "rʲ": 190,
  "ɔ": 191,
  "xʰ": 192,
  "dˤ": 193,
  "s̩": 194,
  "t͡ɕʰ": 195,
  "ɔ̈": 196,
  "ĕ": 197,
  "ɴ": 198,
  "k͡x": 199,
  "d͡ʒ": 200,
  "dʲ": 201,
  "æ̞": 202,
  "ɡ̃": 203,
  "uː": 204,
  "pʰ": 205,
  "ʁ": 206,
  "n̪": 207,
  "zˠ": 208,
  "ø̞": 209,
  "ɔː": 210,
  "ɳ": 211,
  "vʲ": 212,
  "œ̃": 213,
  "ɾ̝": 214,
  "ũ": 215,
  "ĭ": 216,
  "ɐ̯": 217,
  "ʁ̝": 218,
  "qʼ": 219,
  "β": 220,
  "pʼ": 221,
  "ɡ͡b": 222,
  "oː": 223,
  "ɲ": 224,
  "j̃": 225,
  "l̠": 226,
  "a": 227,
  "d͡ʑ": 228,
  "œː": 229,
  "t̪": 230,
  "zː": 231,
  "ʁ̩": 232,
  "ɔ̤": 233,
  "œ": 234,
  "dʰ": 235,
  "lː": 236,
  "z̤": 237,
  "sʰ": 238,
  "ʏ̯": 239,
  "ð": 240,
  "r̩": 241,
  "n̤": 242,
  "ɭʲ": 243,
  "ɭː": 244,
  "ə̃": 245,
  "ä": 246,
  "ʀ": 247,
  "æː": 248,
  "ɡʲ": 249,
  "ɪ̃": 250,
  "lˠ": 251,
  "ʊː": 252,
  "cʲ": 253,
  "ă": 254,
  "d͡ʒː": 255,
  "i̯": 256,
  "ʉː": 257,
  "t͡ɕː": 258,
  "ɬ": 259,
  "fˀ": 260,
  "bʲ": 261,
  "ɐ̃": 262,
  "ɣ̤": 263,
  "xʲ": 264,
  "ɛ̆": 265,
  "θ": 266,
  "ɵː": 267,
  "ɨ̞": 268,
  "ɡ": 269,
  "ð̠": 270,
  "l̤": 271,
  "w̃": 272,
  "ɹ": 273,
  "ɣʲ": 274,
  "wˠ": 275,
  "u̯": 276,
  "wː": 277,
  "ʐ": 278,
  "ɵ": 279,
  "ðˠ": 280,
  "t͡ʃʼ": 281,
  "pʷ": 282,
  "v̤": 283,
  "ǀʰ": 284,
  "x": 285,
  "ɥ": 286,
  "ʂː": 287,
  "r": 288,
  "o̞": 289,
  "ðˤ": 290,
  "ɨ̃": 291,
  "ʊ": 292,
  "ʙ": 293,
  "b̤": 294,
  "ŋ̤": 295,
  "kʲ": 296,
  "ʏː": 297,
  "ʄ": 298,
  "eː": 299,
  "ɗ": 300,
  "ʏ̈": 301,
  "ɛˤ": 302,
  "w": 303,
  "pː": 304,
  "ɖ": 305,
  "ɧ": 306,
  "h": 307,
  "ǁʰ": 308,
  "hʲ": 309,
  "ʃ": 310,
  "ɑ̈": 311,
  "d͡z": 312,
  "bˤ": 313,
  "k͡p": 314,
  "ð̩": 315,
  "n̠": 316,
  "bː": 317,
  "f̩": 318,
  "wʲ": 319,
  "o̯": 320,
  "ʁː": 321,
  "pˠ": 322,
  "kː": 323,
  "ɪˤ": 324,
  "ʑː": 325,
  "ʌ̃": 326,
  "ɪː": 327,
  "ǃ": 328,
  "ç": 329,
  "s": 330,
  "hː": 331,
  "rː": 332,
  "tˤ": 333,
  "ɦʲ": 334,
  "ŋ̩": 335,
  "m̥": 336,
  "ɖː": 337,
  "ɭ": 338,
  "mˀ": 339,
  "n": 340,
  "iː": 341,
  "æ̝": 342,
  "xː": 343,
  "i̤": 344,
  "ɽ̤": 345,
  "ɶ": 346,
  "ˀs": 347,
  "l̥": 348,
  "ɱ": 349,
  "e̞": 350,
  "ʋ": 351,
  "y̯": 352,
  "lˤ": 353,
  "ö": 354,
  "a̝": 355,
  "ɶː": 356,
  "t͡sʼ": 357,
  "s̠": 358,
  "t͡sʲ": 359,
  "ɪ": 360,
  "y̆": 361,
  "ɤː": 362,
  "ɟʰ": 363,
  "ʒː": 364,
  "tʲ": 365,
  "ɕ": 366,
  "ɨ": 367,
  "c": 368,
  "t͡ʃ": 369,
  "ʑ": 370,
  "ʝ": 371,
  "ʋ̥": 372,
  "ɢ": 373,
  "ɛː": 374,
  "b": 375,
  "øː": 376,
  "ǀ": 377,
  "ʏ": 378,
  "i̝": 379,
  "ʊ̯": 380,
  "ʊˤ": 381,
  "ɐˤ": 382,
  "r̥": 383,
  "t͡sʰ": 384,
  "aː": 385,
  "t͡ɬ": 386,
  "ʋː": 387,
  "sˤ": 388,
  "s̪": 389,
  "dː": 390,
  "ɪ̈": 391,
  "ɨː": 392,
  "ɽʷ": 393,
  "ʕ": 394,
  "ɒː": 395,
  "χ": 396,
  "fˠ": 397,
  "ɯ": 398,
  "hˠ": 399,
  "jˤ": 400,
  "tˀ": 401,
  "ɣ": 402,
  "y": 403,
  "ɦ": 404,
  "ʈʰ": 405,
  "t͡ɕ": 406,
  "vː": 407,
  "m": 408,
  "ɮ": 409,
  "e̤": 410,
  "ʋʲ": 411,
  "æ̃": 412,
  "v": 413,
  "ɽ": 414,
  "t": 415,
  "a̤": 416,
  "e̯": 417,
  "ɜ˞": 418,
  "q": 419,
  "bʰ": 420,
  "t͡sˠ": 421,
  "ʂʰ": 422,
  "fː": 423,
  "sʷ": 424,
  "ɾʲ": 425,
  "w̤": 426,
  "fˤ": 427
}